memory_initialization_radix=16;
memory_initialization_vector=
FFEB000F005AFF86FF75FFFCFFD200230080FFD0,
0051FFD1FF83FFC30086003E006E0022FFDF000C,
0010004A0003001C00690019003100090085FFF7,
00200038FF6E001D0092FFE7FF7CFF76FFA3FFC1,
0057FF9FFF71FF760046006BFFFEFFE9FFB30047,
002DFFD4FFB90024FF88FFC1FFD4FF76008EFFC7,
FFF40069FF79007900000068007C003BFF7E0022,
FF86FF8AFFD1FF770057FFD1002FFFFE0092FF99,
FFB7FFAFFFFFFF93FFA8007300380011FFE7FF77,
009100520049FF850056004AFFE7003200770083,
005A001DFFCE001AFFD1FFDA00480037002F0008,
008BFFFA0059001C001EFFCEFFA6FFF9FFE3001A,
FFA9FFA6FDB5FF5DFAFBFF8A02BB0020FF7AFE82,
FE51FFBBFF89FF46F8E9FE7502FFFF3AFE23FD2C,
FF31FF720418FFCDFEC8005EFD4FFF87FFE9FF7A,
006300480020003AFF8D008BFF93FF790016FF6D,
002500160072FFF10052FFAAFF9E00100062FFBF,
00680031FFEBFFC9FF7400210007005E0024FF8B,
003E004EFFA2007C001100340001FFA500660045,
000E003900340084005DFF6F0049FFB8003AFF9E,
0070FFF300060072008E0058FFD1FFAFFFFD0073,
0060FFB0006CFF79FF880029FFEDFF9FFF83003D,
00470022FF80FFEC0073FFE90042FFCEFFBEFF71,
00860091FF97FFC5FFB8FFE8FFF7002AFFC6FFEA,
FFB80023FFA3FFDEFF8FFF93FFFBFF87FFAE006F,
0022FFB5008700340049FF9B00790085006DFF6E,
006C0092001B0074FF90000DFFBAFFA1FFA9FFB2,
FFAC006C0048FF980062FFB5FFE2FFF7007F0013,
FFF10051FFAA006E0035FFEDFFAFFFA70053003E,
FFEEFFE1FF85006FFFD5FF8FFFEBFFBDFFC8FF72,
003E0001000500800057FFB20001FFCD00500072,
FFEE00510034FF770061FFD3000FFFA0FFC5003C,
FF6F0016FF5A004FFF94FF8A0091FFFBFF7F0081,
0050FFEDFFCAFFDDFD80FFB0021BFFF1FF88000E,
FE7CFF82FCA0FE25EEDBFEDD0383FD94FFE3FE64,
FCEBFE74F620FE43EE50FC9603B8FC84FF08FE16,
FB10F927F4E7FCE4EF5FFB7CFE9FFA3FFC37FB7F,
F9ABF92EF217FE95EC56FB5DFD14FA94FB54FC9E,
F71FFAEAEF78FCD3E60AF9D6002BFC6EF9E2FA61,
0253FD71EE15FD0BE321FAD603B3F466FB8DF596,
05F0FC29EB45FD9AE1E6F7B70833F421F9B6F3BB,
039FFBD8ED5CFAE5E560F67A06CBF6EEF8D8F4BD,
F4FE063CEE86F9B4EEE3F3C7F78FFB0CFAF4F90A,
F5B206ADF4FEFA8BE99AF5E3F966F69EFB44F44F,
F51EF67D0879F7EAE692F794F316F7A2F6EAF2F1,
F721F462FAA2FA53E6E1F8CAFC34F827F885F4AA,
FBA1FCA4EDA3FB7AE8FCF7B2084FFC5FF921F5F8,
F9F4FDC4ED94FC16EB9EF7AC0848FC1BF985F780,
FB57FCF3F074FCD7ECC5FA5A081DF9F4FAABF7F1,
FDA8FED8F663FF50F415FD1A04D5FD16FB96FAD8,
FF9AFF42FA08FF7BF6FAFE9805BDFB59FB5DF95A,
FF25FF49FD3A002DF9DFFE3D0423FA59FD1FFBCE,
0020FFC80042005000510071007F005AFF6E0056,
003700030042004E0008FF7AFFDA000F0023003D,
0011FFEE000F002B005D0057FFA5005AFFA90055,
007FFFFA000BFFE9001800020015FF93FFBB0047,
003CFFD0FFD80031FF7400500070002FFFCD0078,
FFABFFD10045000D005A0023FFDB001BFF7BFFA1,
FFAC0043FFBAFFC4FD4CFF8301890077FFFDFF76,
FDCAFF8A0013FF6AFB25FDBBFF5EFC38FFE3FD0F,
FFEA0002F813FF83F902FC3F0317FD1DFF95FC7D,
FCAB0019F955FE97F938FD3E02DCFF77FE76FE91,
F2B0FF3EF7DBFD11EBE8FC91FBC7FB74FC4CFD5F,
F323F9AAF043FC3FE0B5F94803B8F7AEF9FAFB44,
EC96F706F7ADF530DD78F6AF064EF75CFACDF9E0,
E625F36FFBE4F01EDA51F41F0E89F570F7B5F810,
E251F43EF641F822CEDEF1EC1292F3C5F633F677,
E83DF293FD17FDE4C8CCEC5B0D3CF015F20AF13A,
E8F2ED77FAA1F7ABC5FDE74C0E23F1AEEE75F127,
EA78EE21F6D4F14ECB3ADF450CA0F317EE89EBAE,
E2770071F20FF015CCC6D6EC0758F300E8DAE954,
D9F4094BF62AE605C792DB4607D0F334E8C4E4E5,
E8D40679F95FE1D6CF54EDF0060AEFCBE677E189,
DC6EFC40F5ECE78BE359E5F30477F05CEA76E338,
DF7CEE0CF48AE72CD222F2870DE8F62EF5ACE56D,
E0B1ECD3E993EE62DD90FFE9104AF547E8EBEA05,
E450EFA5EFB0EF86E147F3AF10EAF83DF17DEF17,
EC40F273ED73F4D2E507F4B912F6F996F3D4F52E,
F078F485EAF1F706EB4CF5B1112FFB60F55FF414,
F849F5ECF792FB9AE9FAE8700F53F98FF4BDF7FB,
FB03F8FB0559FE3DEE9AF37C0BE3FD63F3AEFD2B,
FF5BFBB506CFFF96F3D9FE4A017E0009F790FE13,
0065001DFFAF006700090055FF98FF80FF900078,
000A0053FFF6006BFFF3FFA1FFE20009FFEBFFD1,
009100340060FFD5FF9D0039FFF5FF9700070081,
0080FFCE00740031FFFA003BFFD3FFE3FFFBFFED,
FFA5014AFDE4FE9CFB95FF15F9AEFFCAFE78FE1B,
F8F800E8FD9AFE97F422F728FC75F938FEE2F950,
F644FF4FF81FFA07FA1FF804FBE9FAC9FF4DFC90,
F4B2FC9FFC7B08D0F437F4C9FF27F996FBA9FD3F,
ED19FD23FBD0FA1AE7B1F288019BF7B6F935FA80,
EEACF70FFE92FA00DAA5EEF40206F0D1F794F982,
FB6FECC105B7F728D295F74B00CDF251F357F95C,
EC3FEF9E0D14F3DCD665F06B04A3F055EB56F2D4,
EC23EA5603F1F7EEDE44F27F011BEDFBE379F129,
F85DEE1D0511002FE4B8EF2200BFEA81D8E1EDBC,
F969E666059C03DEDF6DFC350092EC46D407E90A,
FFEEF9500950FEBDC6B5FAA30046EC16DD09E2CD,
F9A3FDF905B903C3D786003D0200F13CD9F4D990,
F2E5FD5C03BF008BDCF1F8BC0268EE71DDFFD792,
F771F3BD04370333E5DEF779029AEEFFD5D9D78F,
F588FCE3FD6902D4E9EAF43B0458F017E0C7D865,
F263F960FEA201DAECAAF7FF07BBEFC2D955E998,
F777ED8AF9C9F973F47FFAA60D6BF20BE1DEE53D,
F382EA23FB19F3B8EEB5F7BF14ADF4A9ED18E95C,
EE4DFA1EFCDFEC25F748FC091469F3D8FC5BEE23,
EBC0F4E7F4F9ED30FE1101211CFAFA17007AF35D,
ED3FE8F1E79FF06EF8F3F5AD1926F909031AF8A1,
F7A1ED290106F4F6EB77F64F16CEF9070047FCCE,
F768F4B605B6FF39F40302D009AFFE8BFB26FD6E,
F8C5F769FF19FF99F8C6FD7801CAFFEEF8E9FFAC,
FFE40082FFD000170005003BFFD200860076001F,
0048FFBDFFB9FF9B0058FF7DFF75FF75003EFF8F,
004A002AFEFC00890010FF14FFB30058002F0027,
FEF001FFF862FF29FDDDF869F6B3FFEFFF74FF7E,
F9E00030F47103A4F5D7F550F74A0204FD64FDCA,
F409FF12F18000BE015DEECBF604F9D4F817FBFD,
EB3FF32BFCDC0791FDE6E427F6A0F3FCF53BF671,
ECC8F37CFEDA0A04F282F45DFD6DF1DBEF7FF54E,
F7EDF0D1FCB6074EF715F8A4FDF0E997E7ADF160,
FD96E8D0017B07ABF241F1F0FECDE118E22BEF0C,
00DFF89708A9052DF38FF87DFE2CDECCEC05E9EC,
FC43047F077F0414F24AF7A5FC45DB88F643E430,
F855F96D051503AFF70DFC87FB4FDB88F9EDD9FE,
FD99FBFB057003B1F3E6FE85FAF6DBA2FDECCB2C,
FFC7FDE506DE0405F50CFBDFFB74DB21FE97C3AD,
FDD8FCE3037D033AF1B4FEEDFD85DA5FFE93B733,
FF20FF3403D30311F2AD038AFF4BDC73FEEDBDFF,
FD3DF7150235FF72F6CF034A0118DDA4FD2CC5B2,
FEE8FC2DFF51FC87F6A8028C05BCDC48FBF0BBE1,
FC36FB70FF0601CFF735028D0685DCE9FAC4C76C,
FDDBFBE0FC7BFD46FEA8FE3906AFE2C4F861CCEE,
FE7F0171FBACF5CC01FDFE780B56E3C4FA03D5A9,
F8F90197F873F18D066D0B9C09A9FB43F7D1DC75,
FB940336F571F0AD0AB6114B100DF510F608E3EF,
FF0B0269E33BD2B3030D115310BCF380F650EC7B,
F716F197EFD1EB46050111BE0A5CF723FFB5F36C,
EC7CE84FFEE4F9A9FA5D0651FC35F9F003F4FA6F,
F725F5B0F8B5FEC1F740FCC8F515FE0D0729FEA7,
FF63F7D4FA49FF59F8A4F881000EFFFC01900007,
FFC000100084FF970052FFB3FFB9FF9C006C0025,
0023FFD000380029FFFB0063FFF3006F0073FF87,
F477026DFB23F8FDF818FAD5FC47FC16FD60FECE,
F86505B9FD760C94FB2CF09CF28EFE2EF394F717,
EE6C0283FCB40F2A0156E55EED86F289EFE7F490,
E9C3FB86FF6B0C2604EAED81F5C5F8CCF708E6BC,
FB0AF20AFDD410F00704F48FF725F8D1E93BDB32,
F9B0F0A2FF350AEF032BF8DDF691F52EEDDBD07D,
FD66DB1A04080690F976FB68025EF7A7F372CF34,
FAF5EDDF01450427FB7BFFB6F9A8F930F896C605,
FBDCFD6E044B036CFB3AFE5CFC82F8DDFA8ED6C4,
FD88FDCE065E0446FAB7001BF91DF52FFEA6E458,
0053FADA04BD028FF9B4FF97FA50F4A9002FE532,
00FEF9DF04C20086FA9BFF15FB67F17B0099F093,
0370FBE904140006026D0084FC3CEDFD040CF5DA,
0264FA95048401320551FF7AFD90EA5A037EF432,
00D8F7F905F9FFE002EB0378FDE9E58002C7ECFC,
01ECF7C20330FBB7038F03DFFF61DE7F0566E95B,
0201FC7301A5FBD7015F03470247DBAC0232E603,
FEC5FE75FEC6FDFA0245033C07E6D8D30129E0A7,
FFEB003CFE1EFBCF04B208B00B92D5D9FD43DC1B,
FD1103D6FDC7F42D037B061D0766E5A5FCF0D10B,
FE600691FE0FEE2F05140B3407D6E4C4FBBACB50,
FB4B055CF339E1BB08BB0CC006E3E34EF9F9CCA5,
F33F0373F379E08705D90DC50118EF67F9FBDC22,
E16EDF7E025CF200F97107AAF1EFF4B90004ED25,
EF3AEF4AF5BCF7FDEE7C072DEEE0F672F798FB0D,
F640F773F808FF72F8A4FD7D00A0FD35F7A9FF8B,
0004FFA4000EFFDCFFA1003DFF84FFC1FF9C000F,
004AFFBDFFA200DCFFD1002FFFDAFFEEFFDAFF99,
F8A30002006005F1F7AC0055FEFB0220F302F8B0,
FACD05FDF58410A4F2D8EA3EF408FDAEEBF7F2E0,
EF660749FB830EC305C6EEE1EB70F7F1F702E275,
FB9DEF2BFF980BFB0451F548F48BFCC8EFDBD25D,
FF36E9BB02520A4B0088F8BBFA63016FF0E2D71E,
FAE7E64E01990033001DFA9FFECC0132F022D592,
F95BDC2A025101E7FD98FBF2021D05E2FA51E35A,
F96FEC4701B1029EFBBBFEEEFB66034FFCBEEC89,
FBCBFB4B01600269FC8BFED0FC3C04E6FDBCF04C,
FD75FE1802CC0364FBBA0054FB3E03E0FDC4FC1E,
FDEFFB0003D70383F8310000FC77023F00330468,
004EFA4304F80329F5380159FAB0FC60FF660C2B,
013CFC180404029CF1F000F8FA9EFAEAFFD80BEB,
0215F97802EF0135F279FF6BFCD0FBDA027909DD,
00B8F6580272029BF311002FFA78FFB901F40A69,
0257F776012B0005F69200FEFBDBFC91017206B2,
03A3FB9EFFF30089F962007AFC35FCF8FEB60173,
026FFE48FEC8FAE2FE4C03CD0264FBF0FE2DFC6E,
00BA00F8FDEBFA5B00A606400326FC32FD8AFA97,
02FF00F4FDC4F7FB02670516005DFF6B0135F2E6,
009A0211FC39F3450A110E20FD64FA41FE7DE553,
FCB401D7F1BCEFDE0D9A12ACF98FF0C30141CBD6,
EEC1FB80EF6AD3630259171CF420F08BF8BECE86,
D735D756EBD9E5DEFF3A17ADF199E94AF9BBE452,
E3E6F009F622F364016F117EF1A8F1DBF9B3F133,
F1F2F90EFD7DFDFBF238019DF559F840FF93F888,
FFB6FF95FFD3FFD8FFBF00850043003BFF5FFF59,
FB86FB8BF9C90685FA00FC93FFBBFEE4F6D7F7B6,
F956FF66090DFD04F82AFAA1FBA70027EFC5F5F1,
F7CBFAE7FEDE0113F917E907ECEFFA33EC1CEC7D,
EA9CF7C3FF5D0A94025AE64BE9DFFBB4FAC1DBC8,
0167EF790048062803E9F6ACF5080257F39ED414,
FE31E48D0068029100E7F9ACF9BA084DF8D8E1B2,
FCD1E22FFFFF0131004FFCA7020A08F4FAF2F033,
FA7AE34D017C00D9FF14FF16FE52088C0070F2E6,
FE89E8840080FFD4FD7C022CFCCA088BFF62F504,
FEC8F9BB0184FED3FBBA03B6FD7B097A00F1FA30,
FFA5FCD402600055FAEF0369FCCB068DFFF70075,
FF70FCE401CE0213F5CFFFEFFD1A070FFEE305FE,
01FCFBCD01CC0240F3DBFFABFA5D02B1FEA607F5,
01F0FC040307021FED1CFE70FBC9002DFE940ACA,
0216FA3D01420344ECCBFE8DFC04FF80005A0C7D,
0254FB02FF770180F122026CF895010EFFE10A75,
0541FA39FE8D0289F4D4018AF91A01CCFD75044F,
04D6F9BE001C0153F9BD0315F69401F6FD9F01F1,
0618FFAD00860173FDAB04B2F1FD0412FE26FDF0,
00F2FF66FDC7005BFD9806C3EFFF02950186FF0A,
011FFE960207FCABFF850AD4E9B60274045CFDFF,
0026001C05D3F81D07CA0C1BF0FE02FF015AF8C5,
FCBC008FF54DEDF508B716A1EDDDFBE80334EB3D,
EF93ED7BE492CFE5FCAC2426F281FBAD01B9DE57,
EE80DB0FE627E406FBB71FD9EA25F03EF6E5D2FC,
E48AF3E6F5AAF6D6F8900D11FF55EB9DF94CE8D4,
F5D6F781FE6BFD68F4210706F2D8F864F84EF411,
08B4FF67FD33FE0AFC6BFF39FFB2F8D7FF21F945,
FC66FAD1FFEDF803F461FD76FDEB0B73F5EAF2FD,
FDB5FAFE04B1EFB7FE3AF62CF982044DEAE3EBB8,
F9DAFB7C00F4FF0DFC39E1A8EAAF0471F8A4DE7C,
E7BBF4F3013A08870013DF06E7BC0617001AECD8,
FD56F35202A405B200E4F8BFF5C30AC9FAD6EEA3,
FC26F2F5001F002C00E0FA7FFB200E08005BF3FC,
FDF4ED920230FF8B02F4FBAFFEB211BF03EFF499,
FF15E4480251FFABFEFA00ECFAE00C2A00FFF934,
FE7FEDDC02DCFC1DFC5C023FFBBB07570351F81C,
001FF5E6050EFDCFFC8603BDFC8D075F03F9FAE3,
0060FC800343FC98F9B803B7FDD1089501A2FD8D,
006CFCBF0095FD22F6B502F7FC540684026BFFFD,
FFC3FD8901A4FF38F647FEE5FC0C03B1FF9603A0,
01130058012B0098F034FC7EFA8B03B3FE1B0581,
050602AD00A0021EEF40FD3AF84C01F9FD3B05F5,
092DFE5DFEB9027EF47DFBD2F7FB046AFCC604E7,
05AFFCC6FF2603CAF99CFD3FF54304EEFC4E009E,
03EBFD53FEBB0448FC100155E3D402F1FEF4FD7A,
0297FED4002703E9FDF70294D7EE03AC00A0FB70,
FFB3FC2CFE79022FFDC20560DC6402D30354FCBE,
FF72FBD1017102F7FF440C09E07BFF8A0917FF13,
FFA0FC490402FF9A028F0F50E0B2050F07F2FCD3,
02B0F692FE30EF2601B32193D7B3FEEC068BF467,
F0D6DEB9CF96CA17FD6131B5E5AFF3B9FEAAE7F9,
D6C5DB65E473DEFCF8DA2BC5EA73EF3EF4D0D9D0,
E433F15FF80AF5F4F5CF14BDF99AE977FA1CE5EF,
F73AFB37FD06FE42F4530411F2CFF8DCFFA7F920,
FD1FFDCEFF37FD2EF74CFE87FEF303D9FB65FB8D,
FC3FF9D4F41EF2F7F327FBF5FE0108BCEFC4F49D,
F8C5F658FDE3F23DFC81F624F8E50A26E5C8EA43,
F5CDF7EBFAAD03FDF0D9E250EE120AE0F81AE4D2,
F37BF722FD3907EDFB16F102E74F0CB200FBEB3F,
FDB1F58D062E03CFFC20FA14F4C40E43FA8FF262,
FC32F82101F40183FE1A012E013E07BF01FAFDBD,
0046FB8A02570336FF340141FCCE0659049BFC30,
FEB3F146FFF6FEAFFE5603B6FE0106520710FD3B,
FF57EBEA02FCFBA5FDB404CFFD210134058DFB68,
FF49F3920367F6F6FC9A044DFCF503440462FCB3,
FEA1FC9502E8F2ACFA940807FEB8050704C8FE5D,
0083FD2C0101F63CFABB06ADFD9905810232FE7E,
03A100600035FD26FA5B0214FBE706A300440150,
02AC086B019C0388F09FFA71FB8808F8F955FF5A,
02830CAA003F044FF48BF3DEF85107CEF547FF95,
072706B7002304EFFD96F409F49D0900F8F9FD49,
093BFE8BFFF204A5FBAFF5D2EB9F0797FD1FFA3E,
060FFDF400F902E2FD7BF6ACEA190506FFF2FB31,
03EDFB7CFFDE0367FE92F9B2F313057002AFFA29,
01C2FA50FE2B06F0FF96FEEBFA340341047DFAFD,
00BFFCA900F20670FFA80D96FC2800940836FC9B,
028CF2AFFF8B06B402961D16FD56038F0878FC32,
0494EE51FDF5F55BFF7B32B5F730FFD906EFF904,
F8E2E568EA5DBEFDF27445F4EBBDF830FA61F0E5,
D194E6E9E6EDE5AAEC643EE8E6C8F88FF147DCC7,
E378F702F49EF859E9D31FA3EFB1EA840066E6A1,
FAD2FA13FA46FD0EF09A0E9AF254F57DF7B7F4DB,
FC91FDC4FE7AFC8BF6BEFD2BFDE30535FAC0FBFF,
FBABFF2FF5DDEF6EF522FB8BFBEC0831F3ADF435,
F92DF86BFD06EDABF5EEF7BFF69D0ED3E78CE567,
E8C4F9D6EDC208EAF188E4A6EE7311D1E91BE84A,
F8E3F545FC8A0885FCB1FD25E3650DC6014AF3D1,
FE5AEF24058B044AFFDAFC5BFC3B0FB8FDBDFC48,
FDD2E99804ED0505FABC00900056050F077F006C,
005AF246019D0021FE600338FD9901D5090EFF38,
FF11F34F036EF795FEAB0616010400F7061B0164,
FF9EF219FFFCF35200A30811FD3EFEEC05F5FDA7,
0004F7F8FF73F0E0FEF00776000200AB052CFEF0,
FFF0FD1DFBF8F134FF1408FCFF2B022304F60050,
00FBFD59F9D0FB72028E0927FF0F037E04C601E4,
00A6055AF9BF02E8FB280662001307D001C9FF2B,
FF780FC8FABB0403EE69FD04FED10884F85AFAFB,
FF4011EEFE3404D5FE14F743F73D0AA5F446FA20,
02AA0905FE7D06AB0178F4A4F41E0DFFFB03FB0D,
0836FF86007602D8006DEFA2F58909E5FDFAFBD6,
0672FBC300F201530008E9DEF933055A0145FD3A,
057CFC78FF5C01D0FF17E44DF969053403C6FF43,
05C3F8F1FDA404C5FE17E6F2FE2F05CF0463FE79,
04C5F746FE7B04A1FF1AF299FBB404240A71FD03,
0693ED97FCEE019D0158027FFB3205000CFA003F,
085DE63EFF80F22CF9FA1770FDC1F9730D46FBEC,
FBA9E3D1F90CD82AF6BC2E00F2C5F515FDDFEF5F,
D8A6FD34F4A8F522EDBF316EEA24FD08F86BE884,
E1ECF656EF0AFB33E3051951EBB6EE50EE8FE5FE,
FD49FF45FB8AFE12F8610870F24BFA61FF5AF1A1,
FE7DFF97FD52FBA2FD6FFE90FF970265FD05FCAB,
04F8022EF88BF299F281F744FE0D0C14F760EB66,
F4E0F858F499F296F125F5C5F8C31519E981E61E,
E4DCFDEFE7DE0953F44DE623E8A51588E040EF43,
F9D4FA45013904DDFC8AFBB8E95B0EE1F479FC06,
0105F92105FCF99CFF3100E3FED7074003B1FFE1,
017AF1FFF8C6F67DFD1703FF0094FE670CB70418,
000AED4CF2DBF0C5FDF8053F011EFF210B0902D0,
FF1BF47DF385EF1200EF05ED020EFC3F08B4063B,
FEFAF3BCF087F15003020764FF13FEA1053900FB,
FEF5F666F007F2930532063300B1015B04030171,
FE90F858EABFF9BA05670660002C02A7042801F5,
FECDFD58EA17022108C906CD0257065107930348,
FEB6073EEB990360F93104140483097E075CFE40,
F8FF11AAF3120573EDE3FFB0FDED067BFECFFB3B,
F68711DCF99906260518F9F6F7610898FADC00F7,
F96E06D6FD8405EF06AEF95FFB540AB9FF6402DA,
FFE6FCA2FE0C035702CDF691FCF70866FE920261,
014DFCD0FFA50336007AF1F1FD6A04D202BB01AB,
0455FD06008601EDFF23DD45FD6F02A705580202,
0619F5D6FDB0008EFA95AA9FFB5101A204B80436,
0628F633FEA3F8AAFCCF96EE0213031C09A60530,
084FF087FD26F14EFE429A34FF5301B61231033C,
0A05F0FCFC3DE552F77CB4630579F48D1AE600A3,
04C0ECE8FF20E6A3E80FDB0E06AAE82C1BB1EE6F,
E7A6028008A8F806ED8C12EC0160F75C0D59E749,
E6F6F47FF258FC72F0DA1052EC73F2930559E9D5,
FD47FE01F890FFBFF968068FFD15FA07FBA2F504,
FF93FFABFE05FD92FFEDFF7D003A017CFD4DFB96,
FCE8FCD8FE12F3FDF0B7F6E4FB48098AF9EEEB64,
F5F0F63DF81FEEF5EE83F5C3F8C114C9EEEFED09,
E39F00A5F706FF7EFB2EF594E8E31589E837F23F,
FB84FFDAF69AFCBEF855F968E0DE1523F6BA010E,
01E1F8DCEEE3F3A3FCA60581FEA806EF01ED0261,
036DF447D542EF4FFE0908E002D9FAEF0BDB0519,
FFDDF831CAD7F112034705630203FE80071B05F3,
00DDFB7BD508F7F504E3028301FEFF3302AE04D7,
0002F8CDD6D1F9E9059C035D01AFFB5DFFA204A5,
FFA3F753DBF5FB570B6203D800D6FDDAFDF10491,
FEA3F349E2CAFC74104C0410031CFE49FFAB0470,
0106FC25E86C0266113F04F9039FFB8C078006E6,
FCB50611ECAE0406FE91021802BFF39E048C0655,
F32310D4F1520587FB04FDF7FD2DF274FF5D03E1,
EAB10E50F88B043E05D1FB29FCC1029E00DC0672,
F05E0292FB8D06FB059AF982FEF806DE01580674,
FD8FFC3EF9D904DC0470F884FF1D04A6003405E6,
FF2EFC96FE6D01860231FC5FFDDD017C0236056D,
0040F55E02F5FCCEFFBAFDFCFE3DFDFB04290705,
0314F4870062F80CFD5EF5A9FEC4FE1804C20A9D,
0588FFFAFFABEC940228CE7F06B9016507690D42,
08BBF5C8F907E04AFC4D99B20D12FDB20F010F2F,
096CF831F54FD533ECE39C4A1033F691140705EC,
0935EF8908D1E8ADF483AF7A105CE34615E3E9F2,
F719F76811B3FD60F474E7E30D27F4FA0CDED947,
EFF2F3F00CC0FD3C0035FB35ECA1F5530498E6BC,
FD9AFB34FF43FE55F8BDFB3DF741FCB2F35DF529,
00840124FF6DFE8F0045FF9EFF8AFE92FF59FA1F,
00D6FEAEFDEEF5C1F95AFA3BF8E90968FD66F0B6,
FA7CFB89FD60F0C1F0BEF75CFAA40F2FF381E125,
F6200215FA7F05FCF9FCFC58EDC1101AE779FD2B,
FDC9003FE8DBFED5FC50FBEDE3471046EFAC069D,
02CCF976CB11F6D801350A390265010EF01A0C37,
0478F593C304F6A3044906CE0560FB71FC8507DD,
0352F794D125F858055B01960364FA49F9DE063D,
02F501CEDF49FA670804FEEB03BDFA41FA2704CD,
023AF897EE11FA9B093BFFEA0101F868FAD40477,
01F9F136F594FAC50D56032A05FBF976F83805DA,
001DEE64F984FC8D109C04AD05A9F40B010E07A6,
017CFC42FD1D06FE0C6E042205BAE398077C067D,
F78C06B9F9EF0461FF0F00E3FEE6D5AE02880413,
F2110E5CF80D019CFF50FDACFCEFEC7DFF2E0523,
E8860C19F98B0245048CFAE30045FDE702A007CD,
F06A019CFB4105AD0692F91C010000010328071B,
FCB9FC47FBDD019B0678F9E0FF2D0070FF99058F,
FCC9FBFFFD83FF7E027FFC5FFD7AFEF6FE6F0632,
FE19F59EFFA4F8DA0213036301B5FDD2007A09F9,
0043F519FFE5F56804B0085401DE015F00C30AC3,
0422028EFC14F0420838034A0949FF06000E0F28,
0878F3A1F9E9E45E013DE9CB09E20246031B0774,
0722EECBFCFEEB00F7FFC0D91235FDD7066EF544,
04C3ED8D0974E732F7BCB6A10B65F5D503B2D779,
F8A6F46C16CBF4A9FA5CE7D10600F9520335E346,
F524F4A81436FA18F861F652E8BBF3BF0202EB9A,
F8BBFDC40BBEF806FBA4FBC8F42CF96AF527F9BD,
FEA4FFE0FF41F726FF65080EFE78FE3EFD4FF689,
FEE0FF3BF23403FDFBD4FCA100030715FE15F6A0,
F48E000AF83BF8FEF640FAE5FEA10A83F9E0E8C0,
F25503C9F5590B61F9EEF1B2F4D20743E9460741,
F9C003B1F0B7009C042EF926E0A4FE94F5380D6E,
035AF5A8E10BFA88085DFDF7FBE40232E0660926,
034BF3F2ED4AF1E90958FAC4069BFB31E51005F4,
06A2F040FB1FFB2E0781FC30044DFB21EB130365,
0636F49BFDC4FC5E08B6FCB30305FCE7ECEE030D,
0354F3090078FA0708E10296038CF99EF12C0505,
0346EE1E007CF8B80ABE046B062AF86BF6D706BB,
02F2F24D021EFF770B7D033B0655EF19052D07A3,
0486FDF4FFBE0731076303920582E4DE05AA05EC,
F70A0782FD6C0337FEE5FDC7FE7FEA30013F02EC,
E8890DCAFBAFFFDEFF9EFD0FFEEEF74E005A0218,
E63508A4FBFDFFC30441FD0201ADFDF2011005D4,
F5E400A4FF3100A90825FD200034FF6001990674,
FC9CFA4AFCDDFC6907C0FAE7FE5300C8FD6E04AA,
FD8CF5DDFEB7FD5A055FFD94FD2E04A4F9A802FF,
FF3BF392FD07FDE807B1FE7E005B077EF8A101DE,
018EF70AFD7DFAF304FE0457036A06ABF71600E0,
03FF00FFFBE9FC33027101D504E207DAF27202D1,
04DFFE03FE48FC53010EFE0709AE0CA5ECFEFDD7,
0632FD9AFE6EF9CA001FF6020A3006BBF4E7E76E,
02F1028E0459F5B2003FEB2C081EFB8DFB2BD211,
FB8CFE2414F4EC47017FEB3504730363FF58F175,
EFA5FF3E180FF30BEBB4F1BCEC32F38FF48BF54C,
FC97FF9105E5F928FEDDFDA7F969FFE1FAB2FF3B,
FF5CFF760023FABEFF3305C7FF9A0027FE45F9CD,
FF2BFF3AF67C08440189FD09FF8CFF88FE4EFFE2,
F44502F2EB2E0353025FF8EFFF1A023FF58EED1D,
F28E05BFFCCB0CBF0932F341F5DB05AEFDD5047F,
FE24000F030D03C506E4F799E5A0FDD0F1B806E2,
060AEFAFFF22F8D00377F596FA18FA8BD82702D9,
0379EFD805B0FB1F09C4F3780145FE1AD36AFC7B,
0842004C06B1F70A0759FBFD0283FBC1DD4BFFEE,
077BFC2102FBF858083EFD5C0274FA2CEB0D01CD,
0577F85E0096FA90063D031304CCF75CF40A038F,
0765F59C017DFBEB067D01B1048AF41FFCD605C9,
02D0F9E1009003A6083D01590669F01805BC0690,
01F4017DFFAE06590599020B034CEF9403AE028D,
ECB409DEFF6601D800E2FCE3FD84F37B0265FE17,
E2640C30FE46FE080380FA360064F9EC0161FDE0,
EABE0538FE57FCDC07BAF89DFFBAFE6900E402AE,
F9C1FDF7FF9DFDD30A12FB68FEC1FFEFFF3E04E3,
FD35F5B9FDFDFC4D0698FBF7FF4104E3F9EB027D,
FF40E604FC7FFE8B043FFF59FEC608A6F72DFD98,
FEBCE6F8FE07025D041CFEEBFFF00A48F40CFDE0,
0393EA8CFE5404C4FF36014E046F09FEEFC6F933,
019EFEF2FE5902AEFE89FCAB04BE07C6ED43F7DD,
0238F67AFD72094702CD016304FC0A98EA7AF6F5,
0604F152FE610AEA04EBFCC0FF1DFF88EFC5EBE3,
FF82F78709B1FB78FC0F0456FE33FA22F7E3DFDC,
F953F40E1FE7E688F7D8F07FFEEAF678F415EEDF,
ECCBFA951C99FA85EFEAEFCBE601F179F1C7FCCD,
F9F5FDC40A71FDF6F4BCFB49F3CAFDA0FD1EFA65,
FE6FFF920021FF6CFF0EFB04FFAA0213FAE6FF49,
FF04004BF4830A43FF39FCF8FF3AFC0DFC85FD90,
FAA904AFE7320CE4F9A1F5D9FE4EF61DF4A7F074,
F491FB12016411C3049FFC4EF2C90089054DF8A2,
FEEEFA1D0C8B0742FA90FDDCE76304EFE4D10043,
0518EC790898FBBB02F4F789F9DAFFE5D722FF41,
0472F0A00C76FA5B077FF2E501800152DB53FA3E,
058FFCD0054DF73E085BF556FF94FFCDF296FD83,
0617F58A038EF40C07F2F5BC0064FB4AFBA0038A,
04D9FDE602A0F9470440FB2F03FBF66A018F0501,
06FCFAE60342FCF000F600640502F2DC01870832,
03C4FC930286015502CCFFBA074EF21705350584,
F98202A002D0061F0364FF5F002FF86405AB0008,
E2160A0701BB016B02F4FE13FCCFFB99022BFBD1,
E4CF0C350024F96307DDF9E20092FC98FFB7FB89,
F48F02810000F7D40A10FC78FF4C011B001C0169,
FA1BF90F007EFC460902FBAFFD7B004EFDFD0215,
FDC6EA85003BFDB206ABFE0DFE8E0494F93FFF9A,
FF00E498FDD2035805EE0154FF7306F6F593FBA2,
FFBAE766FCF604300364007201530719F458F968,
00CAF674FC06055D04B8007C01640765F75EF963,
FFCAFEEBFED8060B0654FE95008B0481F3AEF4D1,
001EF6CBFE30097F0240001D0153FE92F30EFE10,
050DEDA900000ADBFD5005D3FE71F947F6C8E816,
FB48F2B60D0C0069F47D08A1FA98FB82EF8BDF14,
F512EF4C26DAD7C5EDE6E98CF58AE557EB2EE035,
E95EFBC81E98EAAAEAF2E81CD8B2ED44ED41F50A,
FC35FD2809E1FB50F57BF960EF2BF9A5FBA9F8D1,
00380074004FFFABFFA2007700290059FF8E006C,
FF010327F52D05BAFF7AFCC8FE63FEFAF8D2FA0D,
F541FE1EE7E40DC6026BF156FB3FF80DF705EDD1,
F3E2F97F04431990F972017EF29802BEFECAF9A9,
FBDDFFB511AA08A3FA3C030AEC8AFCF7E0FAF704,
0329EAC20C55FD55FE6006B2F9120301DAC4F451,
04D9EC1F0B80FC78036905D8FE8EFEAEF048F9B8,
043CEBDF0865F9A70958FD9EFEFFFBA6015703FA,
03DCF8670849F37E0710F3980385FA8F07180578,
0397FD8F0619E9840425F2D30306F8B307E008D2,
0787FD5C040AE598FEB8F3B40763EFD904DF07E3,
03E2FE4C04B0E50AFFE5F38D0906F63006B406BC,
F63D05BD05B0EEB4021CF5170177FEC707310080,
E62D09C503FAF5A60766F501FFFE01600113FC6B,
EEAF09AC02D7F3EE0B31F6D3FFF0FF78FE06FCA8,
F91F00040430F7AD09A8FD8DFDC60223FDC900ED,
FCD8F5BE0288FFE906FBFFBCFC84FE6BFCDF0096,
FD3DEAE202AC026205F10231FEFE02ECFB21FFF5,
FE2EED440052035803B602270237046FF8B8FF87,
FE6DF96BFCEF0489030100DD01A807CEFA9AFD82,
FFA9FC84FDED056F01AC015500FC070AFDACFCD1,
FFE1F9F8FFB007360223FF91FF5E02C9FDB4FC0F,
016CF888FF3B0D83FC0D0141FFA9FE75FE12F8AD,
00C3F29A06B60CFBFF5E0762FFFEFB14F85CEBA7,
FD75EC6518CDF52AF2F30BDCF7FAFBB1EA76DACC,
F4C9EF9F2726D225ECB1DE6FF41BF832E03AF5BD,
ED01FF3917C8EB7CEE51EC89D8AEEEE9ED8AF128,
08B5FD8209A1FC99F3BFFBE9F419F6DDFC42F7ED,
FC32FF5EFF0FF956F5D7FF600014069EFC23FC4F,
FF6DFFC3F9E0022E0029FB2BFEB7006EFD44FD21,
F389FBF4E31409390127F574FA10FFEEF752EEF1,
EA2BF61E007118C5F936FDEDF3FE043CE796EEBE,
FCF5ED370B610B73FC8503D4F033FEAADBBFF090,
000AD6A90C2800BDFD3507F6F5ACFADCEEC2ED6E,
0300D95E08770076FD370D3EFA45F652F82CF933,
034BF0F8089BFE7D04EC047A0050F51903C2046B,
0380FCBA06F9FDE70531FCFF04A5F6FA0C8A0795,
0407FD4807DDF1FD02C7F1F70518F7CA0B43070E,
0666FDE6080AE50EFFB4EF760948F3BA08C605CA,
0529004A05C2DC23FFDFEEEE0889FDBC084D01FB,
F7D40654069FD6930558F436085803B5067CFEFE,
EFFC09FC0561E3C20913FD86032E03BCFDD4FC38,
F54206F1046CF1F50AEFFE9201440265FA88FE64,
FDAAFD550549FA7C0613FD86024E0192FCBEFF12,
FD72F4750425036F032C028B0275FDA9FDAC002C,
FD17F4550295050DFF1D03490224004AFEB900B0,
FDE4FB8900D005E4FC050108043FFFFFFD87FD82,
FE14FF0EFE000523FBE30143024E00320007FCEC,
FE6EFDC3FE750314FCE600C0FE62FEEAFDB4003A,
FEFBF618FEEE06B6FC61007701B4F7C6FEC6FC49,
FF09F94302F10CCBF69D014E0053F150010BF846,
FEF5F8340FEA076EFD54071BFD54E96DF4E5F052,
FDA3E8A0267CDD4EF40B08FAF511EED1DBB2D931,
ED9AF17726EDD5DBEFE1E819F933F33DE0DCF890,
F3D2039108EBED3CF6B8F3CCF1EDF55FF016F30D,
F8C402EF07D1FB2EFA84F57AEF22FD85F6C0FA98,
00430022FE4DFF3EFFA2002E00280060FE56000D,
057200E9F7B00067F807FA81FAFD0868F930F4D0,
F8AFFA85E2C707F80403FFB7FBCA0083F50EEFDE,
E886F635FB4B15F6FD9CEE02F43A0191EAFBF1A3,
0008E7CD04010C8DFAC403ACF3E3FD13E934E6BE,
FF06D2F6039A06EEFD8F03CCF819EA88F305F324,
00C6F55002AD047DF96607DAF818E8BAF98BF4BE,
03A6FB460637014DF55303DCFD42E5030274FA0A,
02ADFD89061501A8F274037E0358F2FA086EFECD,
03CDFEFB0763FF4AF218FFD50218F74707FDF98C,
067BFF0606460067F078FCB70930FDFF06A5FA9E,
058D015B05F5FCBAF6E5FECE0A0502D803E0FF97,
01C10538055FF7AFFC74FEFA0970046E0175FDC3,
F8FF08130436F52600E502F0037A0240F8EDFABD,
FAA903BA0332F6C203180365035902DCF74CFCB9,
FC55FF700292FCEE012301FD04FAFE6BFC04FCC9,
FC51FC4F027B02BEFE5B01940368FA5CFD78FD9F,
FD2AFC4DFFF104B8FC01011402C1FCA0FE25FEB5,
FCC6FD72003C06AEF9C3FFA30063F731FDE9FBCA,
FBFF020600A80382F695006A0112F8A8FEF4FD2E,
FD27F8A2036B01B9F75D0067000CF76BFD93FCA5,
FEFFF443FFB4054CF8A6FEE0FFE9EC04FE23FE84,
FE6EFABB04C70463ED2A027F00C8E6EC01E0FDE3,
FD20FC2A100DFE51E90D07C2FBD9DBB8FB77F636,
FC88FB3C257ED790EC3907E4F6AADE40DA04F1B5,
E2ECF2741F1CD958E614F2DEF056F9AED695FD2B,
F166FEFE0BEDEFC3F9E8EF4EEB0AFB5CEF9CF2C1,
FB1703B2FF0AFD86FF09F772F2C8FE02F796FCF0,
002CFF88004CFFE4FFA3FF99008B0035003F0039,
0692FEDFF8940201FD71FBEDFAB7FB51FD26F746,
FC27F815EF250B92013FF622F94FF85CF634FAA5,
F2C8F337FBB713F3F8A4F0A4ED7BF36CEB87F4F7,
00EDF1C400250E1FF233FAD5F80EEE80EA7DEF83,
003AF49C01700793F43A035BF64DD4FDFB92EC72,
FF780050049D05DEF2FD0351F6E1D924FDACE9B6,
FEDBFE4F052A0398E9EC027DF9EEE65B036BE473,
0193FFD604230246E7DA059DFE25F4EC0008E51A,
0414002C04F70290EC8802C10130FF11FECCE7FC,
05E80147041202DEEFFB036B040B022CFFEBEFD3,
062601D504E90188F67B0536067101E3FE13F9BE,
02CE02710338FFDCF8F000DA06AF02D2FDD3F94D,
FF2B011B01D3FE1BF7AF003906070089FA9CFC06,
FC0003ACFFC3FCFAFB25FD4F06780296FA51FB85,
FC7A00370029FE2DFCC1FE6505AFFCA8FC3FFAB0,
FD620059FFB700D0FCFC002903C9F9CAFD4AFB6F,
FD6EFF1C00740128FDA500100249F826FBF8FC19,
FC5C0283049A05E3F9E800220171F522FED6FAC7,
FCCEF8AE04A8012FF6CD0024FF1AEE160085FB8A,
FD0BF06D032F03E9F81B02450108EBC6FDECFEF0,
FE47F12E01370040FC1DFFA4FE58E8A3012100FE,
FB91F6390895F8B9F4A00864FA4EE21206B0032B,
FC08FC8117D3F7EDF1800C43FD4BDB86F9F7FCBB,
FD8BFEE71DE1DE65EF5A015EF6E1E8CFD95EFD00,
E7C3F62C1592E196EDD1FBD6F40601BDDCAC04D1,
F9C601FC02C1F513FB25F1C3FB19FBD6ED4FEE6D,
001D0126FC9CFE48FC4500A3FF33FF1CF63DFF08,
00580103FE49FF5EFF6F003EFEED001CFE0DFF5D,
FCA8FEA8FAC3009CFF19FC96FF92FB0FFE8BFE82,
F6BCF987F9BE0E59FAE8F5CDFA3AF696F378FAC7,
F3A6FF28FDF51147F085FC07EED8E3C5DA5DF117,
FA9AFE60FE8810A4E5FDFEE8E227E047E0F4EAA6,
00010AF5FFF50C8EF931FEF4ED97E337FF7FEC54,
000605AEFF400735ECBBFCF8F0CEF3E302F9DB45,
FF5D02A2FFCB03D2E9DEFFBFF8ECFC7FFE62D623,
01FAFFD100700261F2C703C4FC82FE6DFA2CE56A,
0348FDFF032600B0F58502C8FE15FEE9FBEBF424,
03FEFF34024B000EF79A028B013DFEF3FD11F55B,
0612FE8C017F011BF8E5030104FE00CAFE0CF839,
037EFBF30169000FF90E032E073EFFB4FF91F950,
01C4FDA6FEE0FF87F7AA01AE0693003601A6FC21,
FF6501A6FDEDFEA7F994FF4004EBFDD6FF82FA35,
FE56014EFF48FFD0FB9500AC031BFD51FD5BFAEF,
FDBB041D003D00D8FCFCFF660272FB32FE40FB1A,
FC7104C6032E004BFEDB00A8036FF8F3FD30F92D,
FAF90631036E0154FDC600D502A5F2EB0024F8F4,
FC80FDA806DF0390FCB80297FEF9F1A900B8FBA0,
FF00F2B003240065FD4F0402FC2AEDF402C502BD,
0030EA0902CBF896FF49062CFAA2EF9D02190418,
FAB4DE970B31F789FF420B58FC9BE201076E0781,
FDEFF6A51723EFDAF9F00E44F713DFC1F03004F5,
FCE20334151ADAC4F4D0FE52FB2CF807D26F0707,
EFDAFCCC123DEB6DF55F0013F7EA067EE2EC064E,
0224006104D6F93BF9ABF73B042CF2E8F2A6F256,
0105FFB2FF080011FF89FFEBFFC80013F991FF8E,
FF64009CFF34FF4CFF31FFF1004F000BFEBAFFA6,
FFE30001FF3100BDFFA400320004FEE7FFC9000D,
F4B4F826F2AE0973FB97F244FCE6EE25F3AEF9C4,
EED1FAC002FE059FF24CF2BDF356E09FEB1EEDCD,
F2BF007D05830BE0E9D5017EEA55EAA6EAFAEB17,
003C0EA60236068FF2EBFE9BE1EEFFC6FA9EDD2F,
03B809F9FFF009B5EEFBF8BBE77B010A0122DC42,
FF88FF17FF8F0585F29DFCDFF4E306C3FD16EE91,
0124FD75FFD702BBF971FE55F6DA0084F9E5FF85,
0347FF3C00A2023EFACF02B8FC87FC2FFB5BFD30,
035CFC90FFD70308FA1D03AFFD76FF03FE84FA83,
04C7F8B1FFFE02A4FA61047AFF0FFEE501B5FA46,
0372F6C4FF7800E2F90305020013FE7E05F8F98C,
03D5F91BFEFD00ECFA5F040A0105FE8708B1F8CB,
006FFE29FE8B0120F9AE032B0005FD4D0537F8DB,
FFD4FF3AFCD2FFBFFD36016C01DDFD870263F7D5,
FE9A0642FDADFF2AFD5A0166025CFAFA00ABF7FD,
FD340DCA004BFED2FF490078FF92F8CA0248F7B5,
FB820DBC067FFFED0195006FFD8FF78803A7F8F3,
FECD07A205F00213036D041FFD90F610049DFA4B,
FFFFFC69081702B6FF450653FC7EF3CD06EC0612,
FDF1E96A0AD6FAB206FB0579F761F17207D3073D,
FE74E1B40BC6FCE200C50C2DF5F2E48701170DDF,
00BFEB6910D6EDF2FC9E0B42EBA8E68DF28E1049,
FECBF8000D66E112FC0B003EE34BF940DECBFF6B,
F6F4FFD80CA2ED9701A301C3F2F002B7E980022C,
001C02E7F8DCFD020305FB5D0410F9C4F591F677,
0237FFA1FE64FF590035FFC3FFBFFFA4FA210027,
003EFFDF00160075FFB8000700660080000C002F,
FFED0042FFB500430011001EFFB3FFA300700032,
FC6CFD78F261058EFA5AFEC3FEA5F0A7F9B5F75D,
EF6EEC3DFDA406C9F49BF21FFAA6E70EE887F385,
F5EBFABE006C10A3E990FA5AF76D0746ED50E692,
F9130769FD530CB9F1EC01DEF42E0CCAEF37E827,
FF8707CC01B80CFEF997FDF2EB540B38F7E9F670,
FF59012DFE190BAEFBB6FED2DD17072FF8820266,
00880009FC4304CAFBEAFEDBE80BFCD8FB17044E,
01BDFEA4FC0304E3FBD1011FEF9DFB85FE04FDA5,
00D9FD19FCA602ACFB720204EF6C000D0067FE42,
0386F97FFBDC02B6FAB102F5F04AFE2C0232FC31,
03D9F7CCFCA7002CF88302A4F252FD720509FA56,
01E4F912FB40016CF8A202E7F5F2FDD6081EF829,
00EFF9E6FC7DFF46FC4C040CF96AFE8806B5F7AA,
FECC00B6FDA1FFDBFC54027CF745FF490639F62C,
FE000628FF10FE4BFEB400F1F591FC7D0687F777,
FDDC102F01750022FF20003AF483FCE50561FC20,
FB7F0C3E094B02310271FD33F86BFA350A19FDB9,
FC2306350AAD00ED02B3FFDBFA37F5540DE10128,
F83FF3540B70FE2A045E05D8F86DF4990CAC0B8A,
F743E4181039F97A025102B0F274F05903D70AA7,
F9E5F0E00B1FF65BF6CC0500F08DECFBFF3615A1,
FA1DF16B089DE24AFE1A03E5EBAAE59DFF3614FE,
F44DFE650E48F8BEFC120392EE4AF4D9F3020722,
F92A03E50B66F886038EFDBCF5AFF855F3CF046E,
F9E90774FE1C033D02A1FB23FCB3FA6BEE7AF24D,
0052FFB0FFE7FFE7FFFA0039FFA0002200520083,
FFB5FFFD003E0061FFEE0000005DFFF6000C0034,
0021FF76008C0059008F0085FFD6FF850053FFD0,
F613FF4BF9940258FE77F9C0FF1DFBC1FF33FC69,
F578EF2EE4140BB5FA54F5CAFF010556EE24F1E0,
FD7DECFDEEB5100CEEECF722FBB70DC0DD46EC82,
FEA602E8F4170FB7FF06FB1CF77E150AEA35FEA6,
FC9203B4F40911A90143FC0FF1370FBFF45F046A,
F9A7FDE4F921100CFAA6FDC0F2950825FA0E03E3,
FC70FB8CFDB60821FB9DFC5EEDEA039300970254,
02E0F8C5FABD0612FD3603A5E8A0018300BC004B,
FF2AF486FAF006D7FCC200C2E0600121FD92FEAA,
FBF3F466FCB60563FD0F0043DD2CFFF1002BFDB5,
FFA9F42BFE1C0263F8CC02A0DB7A006D0014FC20,
01ABF31EFD3E0050F913039DD984032C011BFA55,
0026F6B8FDE30474FBB702E5D8CA02080272F8D0,
FE6BF935FBE4024EFA4403C1DD2F01A80576FC69,
0073F5B8FAE401DFFCCC0123F0C800030679FF12,
FD2302F9FB9D0006FAA6011AD9E10045022B066C,
FACF069101C3FCF1FB13FF85DDFDFCE1072909C3,
F67504F20057F837FF4300E5E4C9F9510AED0E6F,
EAC8F2A906A7F80EFFCCFEC3E876FB770BCE1573,
EFDD0160067DFBE6FEE7F8BEEE0BFC3803FB16F8,
EFC7004A03CEFAC0FC0FFD73F2C9EC9A0399179C,
ECF4FC8E0293E9A9F7240475F540E35203D31656,
F74EFD8C0F67F44BEF4D0894FC3CF208EEAC0B6D,
FE7703490BD5F9C703F7F224FE65F57EEEDF07DD,
FF6A017903FBFF47FD3BFC32FF7EFFCAF808FFB2,
0024FF750034007CFFDE00580049FF76FFF5FFA4,
003D0027006FFFDD0092005F000D0056008B0041,
008C0011FF89FFE8FFBCFFA5FF6FFF8DFF8D0066,
FFCEFFD7FDB40135FFEFFF4D0055FA78FE2903B9,
FDACF94FF304F46BFE440424FF180AECF3D9F4E6,
F2D1ED65ED4AF890F18DFBCCFC9C112EE4CA0255,
E7FEE8FEDFA70072E61CEB1BFB270B93E0C91188,
DE66EE83D5E1FA0BF106FAA3F63503EDEC640B9B,
DDC3E5F4CE51FF72ED3F05B2F6890967E5D503A7,
DCC6F05BCA19053BEE88FABCF0FD075FE893004D,
E09FE902C6E904C4EFAE0239F0DE03FFEB50FF19,
DE0FE0ECC6010675F4C3FF2EEF580358F1D901C7,
E929DCA1C90806A8F075FF61F7270430F21400FE,
E264E630C9C805C2EE81012CFCBC06A1F0EC0307,
E332EC3BCCB0038FF0A40392EB7605A9F22C0360,
DFFBF21ED2B50126F40C034CEAFD051CF70806C0,
DACCE35FCF1BFE25F3450552E9A105F1F98C0A6B,
D2A3D478DB9CFF1FEF3A0482E9BA03A6F831090D,
D364DD92DD32FA61EC4D0360E7A7058CF8AF0EF2,
D499E789D892F67CE9FF0105E35B0456F4D8180A,
DBBAEFEBE5EEFA82EACD0255F49AFF05F7761B48,
E097F793F3E7F255E362F9F4F183F82DF263238B,
E4E8F66CE690F8EEE39DFF7BF8AA0371E7CF1DE1,
ED3FFB61E2ED00C3F42C08F9FAAA06C0E67114D9,
EEAAFB8CEAA7F2D801630A48FBBCF6A9F97B0D7B,
F6F5FEC7F48DFEBCF7100C60FE3AF70EF71E0866,
000DFFD302FB000CFBFAFF4CFFFEFD3AF97008E9,
FF78001303EC003AFC9EFFFE0029004AF960FFD5,
FFCD0054003500780057FF8AFF7FFF78FFB5FFD2,
0020008DFFA20029FFC5FFECFFDF001C003CFFD5,
0063006DFF820007FFAE00330010FF820007005A,
FF73FFA900220089FFCD0048FFD40060FFE8002F,
FFB7FF6B0046FDFEFF2DFFEEFFE1FAFBFE500364,
FD58F7F6FA29F893F472FB39FF13F1C3F1160D22,
F1D4F26CF527F371EF2EF389FE3DFCA4E5E90BAA,
EAF0EFBBF028EC38E403ED71FAC3FAAADFB5002F,
E777EEEDEC86FC64D76CE6C2F563012BD912FD1B,
DFA6EDF4EDFAF3BFE4EBE50AF38004C7D30DFDAB,
D83CE909ECEBED7ADB2FEE14F4C9032CCE0800A5,
D98CEA00E9D2EA62E4A5EFF1EB940021D21000DA,
DB58E47BEAC1EBA9DA16F060E014010FD5D501DA,
D9DAE05DE8DAE3C5E4DEFC30DDAA0118D71C03EE,
D475DA06E6D4E8B5D731FABDF3CA055DD0740497,
D712DDD9E8B1DD92D1D0F409F2A1070DD0B108E2,
D924E625E570D7A4E63CF485F34A0B8DC973041E,
DECCE70BE671DFE1D12BF533F6580A84D40802B0,
E80AEDD4EC3ED200D78AF9BFE49D0AD6D9E001BC,
EA93F09AEC81E121D742FCAFE8C50C90E0E40A05,
EFA1F478EEBCF538E8B5F894F13E0263DEDD0837,
EDE0F59FECFCFCA4DAF4F8ABF6EAFCFCE312116D,
EE7DFBA9EC740302DD39FC63F90A0982EC7B10CE,
F215FC9CF43E01D3E56BFC12FB8D0E17F71D092D,
F6D1FE90FEA9FD14F4ACFE0BFD5605B1FCE5FB38,
FF690018FFD0FFE2FBCCFF07FFAAFEA2FF77FF81,
FFE4000CFF81FFBDFF90FF500032017BFF1BFDBD,
FFC5FF700083007E0070FFB10031006E0062FFD1,
000AFF85FFC4FF77FFE600400037FFEB0085000C,
0041003FFF6EFF7BFFE00008FFD2FF86FFED0060,
003E002D0073006DFFB4008CFF7D006300110034,
0089FFDA0022FFFC006FFFB9001C002900690038,
006DFF70FFC1FFBB006EFFDDFFB9007600210050,
FFE5FF06FF35FF66FF43FFAFFF7401BEFB38FB46,
F7EEFE4CFD7AFF10FBA1FDE1FE9C04B2F8F1F353,
F950FE98FD3DFD5BF820FBC6FDD2FDEFF51AF91F,
F6CEFE17FBCDFB4FF2C7FAF7FE66FBC7F27C034E,
F43FFD0DFB23F47DEDA8F91BFD81FF53F05BFE4C,
F130FCA0FA13F8DCEDB2F694FC13FE81F063FA3F,
F208F4F2F5B6F3A7E6C50074FB200AC5EACEFCFA,
F188F569F6C7F383EB7A00E9F81A0003EBAC0031,
F028F77BF698F276EB91FDE8F783047AE8ED01E0,
EF2AF8BCF786EF40E665F15CF5EE0CF5E877DECC,
EB91F845F77BEF02DF72EC6BF9010F69E855FE01,
ED62F90FF69AF03AEC0CEE3BF9FB0F4BEB24F822,
EFD7F5C5F6EDEFA6EE05F052F86A09C6F078EF95,
F585F806F465F00FEFA8F330FA8A0EEEEF86E351,
F72DF4E7F57AF4C7ED38F3A7FC370F09F057FD66,
FBB6FCAFFA0BF8FFEED1F6FFFC12086BF223FDF9,
FBD3FEB3F8D6FA0BF3CAF6D3FE210683F5290863,
F6C5FFB3FA9EF983F413F420FADF0773F86A057F,
F3ABFF42F644FBF6F510F658FB840D76FA91009C,
F7A0FF84FFEAFFFAFB48FFD7FF1708CFFF82F4BC,
FFEB0070001A008F00840071FFF9008AFFBFFF8E,
000E005700800046001BFFF0FFC3003E00650059,
0059FFB4FFA1FF88FFD2008B0043FF7B001DFFA2,
FF8500210084FFF6FF8FFF880079FFE5FFC1FF7B;
